FF2B
F77A
B104
DB6F
F9D0
175C
3EEF
D2BB
15D1
25D7
07C5
F92E
354D
16E5
1BF6
CB71
FABD
025D
F19A
CB80
03EA
13EA
F158
ED57
0693
2C73
5C90
60FA
13CF
0083
1ADF
50EC
28A5
C8EA
454A
FEA1
D076
C7FE
F64F
1B8E
EBA0
24C3
068B
F49E
E834
0471
3512
E88F
22AE
353B
CC6E
DC5A
3C05
EE5A
080C
E692
FEBF
FF05
0FA4
3C7A
E50E
2B59
D7CE
0FBB
FD6C
2EC2
F158
41BF
195C
182D
1659
3D50
D738
EEBA
E091
04F8
DFF4
E047
0870
FBFF
1558
0329
F6A6
FDA8
3057
14F1
3F45
D52F
E8A2
2B2A
F95B
D388
3F1F
F5A6
4733
D5D8
05BB
1E0B
B788
CA16
1FE9
0A09
3D38
DAB9
D745
0010
E069
F584
35D6
1F19
28FA
F198
DFD7
2C81
E02E
1338
1CEA
2ECE
2B96
017D
EA44
FDD6
F942
5CF9
0DDC
CC84
DE6C
23E5
F8A1
4E75
480A
225C
195C
1EE7
D1AB
4214
EAFE
18DE
E798
C459
23CD
3407
287F
FD66
D327
4303
11C5
1730
E64B
F78C
66C5
0738
FC8E
12D8
4802
CBE7
15AE
0E90
C462
11E6
1C00
0BF5
08D7
F8E9
FCB3
01F5
FB68
F127
DE80
2D42
2D4A
45D4
DF6E
1E4B
2080
3155
20D7
00E9
392D
0200
E69F
AF89
C608
7334
F793
1C4A
CC2A
C3FF
2F0E
3091
E98A
D24F
E1AE
3330
E419
D3AC
48B5
FB63
4281
0E5D
DBB5
0B6E
B05F
DEBF
3830
21DB
3949
FD0D
F818
1A64
DD9E
53CD
E6CD
098D
D1CC
414D
F6D8
F1D2
CF56
EBDE
2FDB
ECF2
234E
F9B8
0616
E9CC
1B21
2111
F746
F292
F015
534D
2E1A
EE97
4057
5BCA
0F26
D7A0
035E
6229
06DA
EDDA
F6BA
C8EC
0963
BDCD
F329
F16C
EE9E
C38A
4E8B
08C1
168C
F836
AF62
3AC2
