2981
E003
69BD
175B
1378
F4CD
C73D
E272
3C50
0F84
21C4
D4E1
216A
CE59
FDC2
1456
FCDE
D24A
1DAA
E83F
E6A2
248C
FBE4
0664
210E
F132
EE55
D443
D0E4
D888
FE22
A332
2538
00D4
E832
FD44
D61D
4565
C04C
0A27
3D8A
0511
1C53
01AA
B938
03B7
062E
B931
2742
F3F4
D843
2D74
FF8B
C6E7
EABD
F9A1
1047
D3A2
088C
0ABB
FCB0
E76B
10AA
14B9
3517
11B5
13B3
3021
FDE0
BD2D
D3A2
D880
2FAE
AB5E
DCB6
FCE1
E156
F267
F6DD
1447
DD80
F923
F7E9
2D11
D619
E6C9
F417
D0F1
2F57
46AF
CCB4
21C6
9A88
FBC4
202E
08A4
FB99
02CE
EB0A
ECBD
036F
E620
F99A
194E
DF32
0D4F
12EF
E115
DBE4
C499
C558
1E72
F99C
D793
F9BC
02F5
02E6
167D
295A
A7DE
2852
D7F0
0E74
1B31
0CC5
D52F
3139
F487
B8E5
2D42
EEF5
013E
1EF6
F5FB
C424
20CA
2229
1091
F783
3934
148C
FFDD
C03A
E35E
0EF6
FCE3
4C06
E369
E4B0
12B7
D497
059C
489A
F375
F666
E61B
0E80
E5A3
0101
CA0E
F955
C6DB
ED71
FC21
313A
E62B
0C6E
23B3
1128
F92E
3232
E3EF
04D8
4A00
1F83
2AAF
1D66
B068
06E6
2370
1381
F12D
208C
C8D7
D912
198E
C33E
EA9F
13DC
F0F6
FA0E
C6C2
F3E9
F5D8
D363
F68B
DA26
DAED
E218
E03A
21FF
3252
3EAD
21FC
DE87
083F
0417
0F6F
11F9
287D
F44C
0A09
28A0
B48E
1B34
2D04
CCEB
F659
54CA
22CE
082F
2F4A
9C72
025B
1AAE
72FB
FE9A
3D2E
F3EF
DAED
B848
36B3
F7F1
1531
E761
0EA9
272F
C37B
2170
F726
C829
F9FE
3360
1B08
F1BB
FD2A
C870
13A2
E955
0A74
03D0
DA1D
C746
E020
F807
F4EE
1D47
0E79
D0D9
FFF3
D29A
0524
F484
A112
FB1C
C462
CDDF
537D
F8B0
E5A9
E8BA
2EFC
A309
E4BE
EB6C
DA52
18B3
1258
DE66
FF99
F990
13B5
24BD
0813
ED9B
F790
F1E6
073F
