01CB9
1E090
00BEB
1BE23
00A8A
01123
047EA
01873
040AC
1A940
01415
1F01E
038EE
00EA1
01244
02906
015B4
1CAE6
1FC24
1E91A
04928
028F0
01D63
02E59
1D627
01796
03B99
0724C
1CA63
1DEB6
1D6C8
002D8
1F7D4
02216
1CEBF
1D141
1AEBF
0131A
1FD7D
1F577
02567
1A690
00B98
1BE52
001C0
030C4
06827
00ED9
04CEF
03639
0316D
1DF48
04FF1
02C7F
01E79
1DFF5
1C61D
00303
00397
04674
1EEC1
1A8F0
1EB9B
0333C
1D005
1D338
1E5E2
0463B
1FD6B
1C5B6
1DE38
03425
1E9A3
1F8A0
1EE06
0033D
1E813
1EBBD
1D7E4
03441
032BD
02323
00A7F
1F1C5
04366
03F0B
03E21
1F3D4
02E14
1C244
1FE53
1C9A6
02A67
01966
03979
005B6
01D74
1CA07
1F3A2
1D2C4
02B43
03C87
035C9
1EF80
1F1F0
1D8F0
1E95A
1BE16
017B8
1FE5E
03FF9
023CB
00E89
03D62
004BA
1D2A2
028F5
03EF5
04DBE
00886
1DA26
023FD
00932
03D6D
1EF78
1EF0A
1AFD8
021BD
0087B
00B6A
1FFEF
027A4
1E15A
1E735
1F70A
1FD4C
0249F
0259A
00202
1E510
047B4
02DF4
018D9
02583
1D965
1C17F
02AC5
1C57F
04B89
025CB
047C2
1CF4B
1F11B
0288B
1C1BD
01CE0
01420
1FCC0
01258
1F3A7
00609
1E2F4
1CE9B
1E4A8
1E046
1B4E5
01A2B
025CC
1E9B4
047E1
1EB58
06163
0018F
1DA62
1D9B4
029B9
003BC
00BE4
03459
06BA3
024EE
1D689
005B3
00E17
003C8
1F05E
016BE
1B480
045EE
04B8A
025C5
033BE
012BA
1F73F
00E96
1E5B2
02859
02416
0244A
00CE3
02929
00F46
02C2C
1E392
02C39
029A1
02588
1FC13
00FAB
02A6F
0274F
03EF7
1BE9B
1CBAB
1C595
1F73C
0395D
1E679
009CE
1EA64
03F58
030B9
1F554
00B99
1CF57
03739
03A7E
04035
01059
00D73
1CB4D
1EFB9
1E30E
060D1
03635
05002
012E1
1D399
0005A
00AEC
1FA2F
1E79E
1DC55
0099C
1AEFB
1FF8F
1FE1B
1D5C2
00C07
03B18
01F25
0DFF1
1FBBC
00EEE
00839
1E75E
