1E035
1EBFA
1FE0B
1DE90
1F19F
1EEF8
01C0C
0040F
02235
1F7B6
00333
1E407
00EDF
00C57
00136
1DB7D
00B89
1DA2B
042B5
01D8F
01501
1E2C0
00C5F
1F4CC
02631
06960
1FE30
0247E
1EB08
1F59C
02629
04DD7
02F7E
0043C
1E68C
1BC25
010C3
02254
00BD3
1D737
1FB13
1EF19
02E81
00E8A
1FB3E
1E7AB
02B5D
1B885
0193F
1BFB1
02DBA
1E77B
1F216
008A8
00BF6
1CE05
03A9D
02A1D
1D170
0492E
1F0C9
1EF41
020F4
06957
01A3D
011D8
1CFA2
03F64
0106D
00482
1EC74
057A3
019AC
00784
00556
1E273
02ACA
1E0D2
1F95F
1F07D
1CD01
1E876
04417
00057
1FB25
1FE8F
00DD7
1CFDF
1EEBE
00117
02F0E
1DF11
0020D
1ED57
0121E
1D778
0147E
1C9A1
03C1F
1FE05
00C17
031CF
1F7AB
1D90B
0024D
1EFE0
03E7A
1CB06
1EB2A
003E6
1E71F
1EC23
01A68
1E705
02F59
1F07A
1D83B
1E696
0042F
1D1FE
019EE
019A4
1F81A
1F1D5
1FB23
00638
00DFE
06E73
02170
01422
00413
0179B
0213E
1E681
01EE4
04150
1DBEF
1CCF0
0242C
006B9
00C26
01902
04493
1C86A
1D3EB
003C7
04891
1E8ED
1F0A7
1F8A0
1D8E1
1C04B
04077
1D92D
1D8DC
1F1E5
1D667
03718
1F017
013E3
1D6C9
1F58C
1C764
1E251
02E01
1F906
1C234
1F58F
1F3D8
007ED
013EE
05404
0075F
00DEE
1ED1D
038AE
014EE
04149
1E390
1E90E
017D6
001F6
1CD3A
0561D
1E51B
1E5FE
03CCA
00DC3
1D4C9
1F868
015FB
1CF3F
001BA
1E7C0
037EB
1E7CD
00100
1E156
030EA
1E045
012C6
1FBA2
0116F
02346
1F3D4
1E02E
027C9
1CA9D
003E5
02EBE
1CAA5
01E6D
1DD4D
1DAF7
1DA02
036AA
1FCE3
1C704
03886
1E98D
0125E
00564
02010
1DCD2
045F8
056C1
1DB60
048C3
011D9
1EEE9
01E0D
038E3
031EE
05D93
1E341
01210
02758
010E8
1EFCB
01800
014F5
1FEA2
1CEE3
00894
1EDDB
1EE82
1E10B
1D621
0820D
0DC40
1F296
1EAE2
1F741
000C8
1D550
04553
