1DBD3
0157C
1DB62
1D70A
042CB
0102C
1EE3B
01A39
1D2EC
1A98C
03B32
00FE5
00E55
043D2
1F3FB
1EBB9
1A9D5
1FD87
1E92C
1D832
04428
0367F
02EBC
1FF88
02A18
011CD
00ACE
040C7
00B37
01100
1F83E
03988
00DC3
036B4
00643
065D7
1E9B9
002B7
1DEA6
00BFB
1DBE8
1B509
1FBFB
00F9C
03057
00B3C
039DB
000A9
1FDCC
1C232
00C95
1E67D
023CB
1FD33
00215
1FAC9
03E46
040D8
0118E
00427
1CA18
1FE2E
1F86E
01F7A
0146B
0887B
1D8DF
1FBAB
1CD49
1E728
00A5D
01903
00291
1EF3E
1E365
0196C
1F43B
1D7AD
02A7C
1E4EC
1E86C
02CA5
02BCA
1C97D
04FC6
02736
02A8E
1D444
1BC91
00D5B
007C4
1ECDA
02813
00FEB
1E25F
1FF27
1F25F
1F20C
1F96A
1E365
02484
04E12
1D58B
01444
1D6E0
00156
02051
1CAE2
00EEF
0259C
1C60B
1D6AC
1BE6B
001B3
004C5
1D68C
003EA
1F35C
1FC51
1FF75
05251
045C3
00C67
1F285
00E32
1EC0E
002A7
1F641
002EF
013B5
1EB79
041A6
1BFDC
1DC57
1CB1B
1F076
00796
1FB1C
02D55
1EE07
0434C
04A0C
1EB97
01D78
014CE
1E6FE
1F34E
027D6
00EDE
028EC
027B6
1E56A
1F5AB
1EA11
0091E
1FCF2
1D475
01BA4
018BD
1FDFB
1BAF3
00957
1EF30
1F847
1CD2C
1EC60
1D47E
033FC
04233
073E7
00435
02166
1FE9E
00759
023C2
1F466
08F25
02569
1E3AC
0180E
1F3FA
1EF35
0083E
1E4C0
1CB52
1F7FE
003BE
1E44D
0233E
0192E
1EAEC
1EE6A
1FC62
1EFD5
1F761
011CA
01895
0393F
024EB
0059D
1E628
02110
1D96A
1FCA6
1FF80
02F42
1E4F3
1C5E4
05C53
030FB
1DF19
02F29
1DB5A
001DB
1DF72
03A06
1FD06
1FACE
1E278
1F410
004CB
03304
0045E
00D6B
02788
00CDC
1E9F5
1EEF2
1D03F
1E731
01754
00E33
06A7F
026A2
01A67
1FA20
1E711
1EFF8
1E0D0
02B97
1CECD
1B194
02039
1DBBB
1F722
1DA32
1E35A
1FD1C
08FDF
00058
01BC2
06DCF
1D129
1FE55
1F50B
033C5
