62F5
3E41
F78C
300F
2412
1022
DC53
C245
36E9
DEA8
C3C5
9F08
B4FB
FFBC
E551
F783
055B
C2E8
D478
0593
F28C
EB92
01A2
21AE
DFBB
FA29
DC6E
B30C
A8E1
8903
D041
D2DE
F8FC
43C9
F05E
A2AE
C700
B40C
F782
F473
02AD
1504
CCE9
E30E
0F10
E030
E353
D262
FADD
DFDA
DB10
FE1D
2B03
9BE9
2A6E
50D7
3A45
05F8
4A20
F87E
F237
E62F
1E50
D13E
C7D4
EBCE
0BE3
C484
0A7B
F406
CEFA
DC90
FF04
D763
00D2
F706
2570
FFC2
1DC3
3589
FDAC
2822
4059
F5C4
48F0
23AA
019B
FFA7
1415
27BB
AF9F
D3EA
14B9
D7E8
FCBC
BB59
0BC4
DF87
E320
F53D
0D71
C9FD
FDEB
FF7D
004F
E105
F78C
1A3C
EC1B
DBA6
FDAE
E1F1
DBF4
170F
3E67
217C
B2BC
E486
C710
B286
C443
C215
0859
0249
2951
CE0C
BD6A
B805
A9F3
A3AC
F7D6
C1F6
1B3C
3637
D0D9
D922
ECA3
0F98
098F
00FF
E956
DFFF
D1F4
4117
5566
1D69
2F26
3E3D
2FB6
F7D8
17E4
DE75
6156
15DC
CE55
EE7D
D620
FD4C
128E
DAA0
C8A7
FAFD
270A
3A5E
F61F
2D3C
16B9
00E4
04DC
E880
3393
66D8
27B6
56C1
4E32
09FF
F93C
FE46
CB38
0A1A
5950
4F78
FECC
5277
0FCB
27B0
D4BD
0C11
462E
04EB
E661
08AF
1ACB
DDEB
F424
DFB7
C651
3878
0C99
276A
2190
EBF8
D6B6
E64E
0BDF
10C8
3100
2FD3
2D23
2574
10BC
22DD
2AE9
F775
FD6D
1807
6877
2193
078A
2A68
2867
2F24
0275
FC01
2E59
48C1
3E2C
FD13
5179
46AA
2BB8
D51C
E716
3173
5723
3977
2FF8
4E3A
481B
11F3
FD31
2613
3A02
DFF7
0B34
DF5F
EB15
E6ED
EB4E
F43B
DCA3
FC3D
1087
0F92
1C61
F56D
F4FB
EB33
CEAE
D9BA
093C
A8F2
B61B
B1BD
CB21
02CA
088C
3257
2183
EA5E
AECE
E915
B2FC
DD40
02CE
F607
3804
2C7E
E442
10A1
CDC3
C7A1
FF2C
C8C2
17AE
EAEA
DDA6
1793
