187A
3A09
C5D9
401F
014E
0A0E
353E
D9DE
1588
E4AC
FCB2
3BD1
E803
1478
EABA
E5A3
E64E
148B
E8B5
1691
DD06
EB43
E17F
D6E2
E4C0
CD99
D65B
0491
E784
407E
B82D
F2BC
2C3C
CF91
F556
EDE6
3EBC
CB45
F3D8
DD50
D4DA
2127
DF3A
E074
C48D
F60A
E06B
4AC5
C398
1D6B
2CB4
BB38
119C
3884
EF9E
1CBF
E9BF
5A83
0ADB
D5B9
235E
15DD
E881
0B7B
0070
DE65
DF93
BC17
DD61
EDFF
D629
0DF6
025E
E827
1629
0BB9
1456
2355
0FDF
1085
2157
E3D7
3725
93E8
2143
DF2F
E287
35FA
1642
321D
0A02
B052
304D
DBDD
CB8E
16C9
D982
CC68
C6C5
FBAC
F28D
DC3B
FEAE
DBF8
D4BC
09EF
C91A
EB3B
0B63
F9D0
6F68
0E06
E2D8
1F7D
C350
EF2E
F7D5
1197
E600
3FB3
F3C3
F32E
0E50
D90E
E4B4
16AE
D8A4
A888
22FC
BCA5
19B4
0E4B
D2D1
FDAF
2863
3305
1938
1B21
BF75
23AF
D4F0
EFEA
D3B3
EFE2
E52F
4D05
C7E5
5631
E70F
03B7
1B5D
0E4D
F401
1081
19B2
D8C2
01FD
DBCD
DF1B
059B
0B65
E7DC
D516
3DCE
E08A
58BD
F685
0320
566D
F675
0566
0D16
4C92
EA93
4EB1
DC39
06C0
3C24
222A
EDC3
05FD
FEA7
8C6B
65E9
1516
0F00
1553
1905
E77A
1A10
D4D2
C8AA
207D
E8D2
EB39
00B7
FACD
0D75
9AF1
39AF
E630
30B6
0881
F11B
460A
E595
DE3E
23B3
3C38
A320
00C5
F2F1
DF5E
4362
3044
EA61
D6DF
4F27
9F8D
4209
1DFD
ED1E
235F
1D74
F8C3
103A
248D
DE97
13CE
D03F
D369
340C
063E
F2F7
0FF3
1CE3
AEDB
2222
DD5F
03E6
2161
0B7B
1CE1
042A
1AE9
1456
FEEB
039E
DADC
EAC0
FA63
E032
D1F0
1BE5
F9FD
0A5A
E46A
E6CA
4522
E81F
F87F
0DDF
D602
4C95
C295
26D2
21AD
F4F3
19F0
FF2C
F0AB
FCA7
6BC1
B931
28CD
41A1
C9DB
DD34
1AB3
1E6F
D798
1B29
19AA
DF43
D270
EB96
C98F
127B
