045E3
03E20
006B4
05AFF
000A6
0097D
1EF24
01BBB
00505
1BE85
1CBC3
010AD
192FB
01BEA
00C61
00C58
0451E
02287
1D4C1
020D3
009EE
016F5
00262
1F3A9
1E14C
1EFCA
1EDE2
1E256
169D2
1C268
1B7D6
1E07E
0134F
1F9C9
022E1
0349F
1B9BF
1E912
063DD
1D3F4
1FF95
1EF53
1C23F
1DDC5
0104F
1B963
1984D
1F27C
1AB64
010D6
0016B
1EF04
0687D
0002B
05211
02C6F
014DA
01F7D
0311B
1E4CD
009A1
1D4AA
1FB89
1D5A6
00202
03A0A
1EA25
00396
03F2A
1FD4F
004AC
1EA96
1FF41
1E8EF
1EA5B
1EF28
0114F
015DE
0244D
1F31E
017EA
046AF
08F12
1F63B
03B05
00157
03462
01735
1C0CC
1DD51
19A55
1BFAF
081B8
1B9D3
03B92
00B84
1B66D
1D13A
02377
1FD44
1F407
1E741
1E435
02DCA
1F2F2
1D0A4
007EF
0237D
194DB
18B52
1EDC9
1B3F1
00BA2
1F481
009D9
024DC
1D5DC
1DC0E
18BD8
00979
1AFB2
03735
1FDFC
1F01D
1F492
1FDCF
17FDC
19D8B
1EF74
1CBEE
012D1
1FB75
00517
0540F
1DF29
1C4EB
1F1A2
02208
1E8E1
042D0
004F2
1D1CB
1E115
01A6C
03AA2
05FFE
1C71D
06015
1E773
01F6D
1EA57
1AB84
00521
1FFB8
00120
1EBF2
1EB5B
1F329
003B6
1CB44
015E1
01D4A
06849
05893
1E68C
00F12
01E13
01783
1E4C0
1C4ED
1F70F
026F6
053C1
0182D
027CD
1E74B
022FF
00138
1F587
1FD71
06B15
07AED
00FCC
07A23
00E17
024CA
01E9A
1DF96
024B4
1D32B
003D4
01AB5
000EF
008EE
0139D
1FBBA
025B4
1FC13
0540A
01EB2
1FDB8
02B93
00896
033E2
1EEF1
1AFA3
0356E
0654C
0341B
01B19
030A0
02136
02990
1EB66
1EF1F
02EAD
079AB
07B7E
1D0BD
060AF
1FBB9
02E32
0119E
1F911
1F550
07340
02D23
1D115
07FBF
1D73A
00989
002F0
011BD
1E597
05AC1
0388B
1E00E
03CD3
02A3A
02D53
1F088
1E950
00AC7
01503
037EF
023F1
1D331
1ECCA
031D8
1ED59
1F95E
001D3
0307A
03AC4
00AAE
00753
01AF3
019DD
1F6DB
1F528
0147F
1AC29
1A7E6
01BE3
1B78B
0318B
1D7AB
017E1
037EF
1C7D2
19070
1B1F7
018D8
1CCD1
02153
1C67A
00F64
1F8B8
1E3D7
00A29
010FA
02270
1E651
0397E
1F1CC
1FA74
1FA65
1EB4D
